0c
13
fa
1d
f6
13
12
05
07
04
fe
05
f7
02
f8
ff
0d
03
00
00
0c
18
e7
15
d0
03
13
ec
1a
e6
0c
ec
16
ff
0c
01
11
fd
02
02
08
04
01
01
0f
0c
1f
dd
1b
d5
35
35
d7
e4
07
4d
50
d4
e4
26
32
15
0b
ff
0c
17
1b
e7
0c
0b
09
1f
dd
11
c8
37
2d
f7
c9
29
56
1e
12
af
34
41
7d
e0
fa
02
01
18
f5
fc
37
0d
20
e1
0d
d4
4e
eb
2b
cd
28
4c
04
33
ad
29
6b
1d
12
a0
31
20
e2
d5
21
37
09
17
f0
0d
d3
4c
0b
fc
dc
1d
3b
2d
d5
aa
4a
1a
14
60
a9
34
f0
11
31
1e
16
06
29
e7
0b
cf
04
05
0a
ed
0e
04
19
fc
c7
1f
36
44
e2
f7
29
46
d9
3c
14
ca
10
23
e3
06
d2
24
f5
ff
f9
00
4c
0f
eb
d4
0c
33
2a
00
ea
09
55
bd
3b
0e
ce
07
28
e1
16
e0
24
1f
0f
d9
07
23
1c
26
c2
17
2e
45
13
b1
2b
ee
3b
da
0a
28
07
2a
df
0f
e1
32
0c
00
c7
1d
1b
e3
d4
a3
7f
20
46
e4
f3
1b
cf
44
f2
ed
4b
04
1d
f3
1b
c6
5a
d0
e9
b9
27
69
c6
9a
0b
4b
5c
ea
fb
b0
02
e9
35
ee
09
4d
14
1f
ed
08
cc
2e
12
d2
e5
17
46
e6
15
e5
fd
63
f6
f1
df
1c
26
31
f2
0d
08
09
21
e5
0c
d2
2d
10
03
1b
e6
09
0d
01
10
fc
33
ef
24
02
ea
07
06
fa
00
02
12
1d
e3
11
d0
08
12
e8
1a
ee
1e
0a
13
17
e4
0e
0f
fc
09
f7
15
fe
ea
08
00
0a
16
e3
1b
cc
f1
00
e8
1d
ef
e9
07
fb
01
f9
ec
3f
03
d3
01
d2
51
46
d6
e2
11
13
f0
1c
d5
08
10
1c
f9
07
28
0d
4a
cc
fe
51
09
2f
f3
0f
f2
28
03
09
28
00
23
dc
0c
ce
05
15
fb
09
08
09
1e
ff
e3
11
3b
3f
fb
b4
18
47
ae
31
f9
e3
fd
1f
e6
08
de
06
10
0a
fc
0c
0d
29
dc
fb
09
3c
25
e5
d4
0d
ea
e4
44
e9
07
02
21
db
fa
f2
16
03
1a
11
f2
08
21
df
20
29
02
00
13
01
07
16
ef
42
1a
ca
f8
3c
d3
0d
01
10
03
0d
f4
f5
f0
1e
ed
1c
dc
1b
f1
22
e3
05
28
15
52
1b
ab
1e
35
c0
dc
3c
02
01
05
ed
f3
f1
13
06
22
fd
01
e6
0d
ea
f5
0d
e9
41
22
f3
d7
39
e1
eb
5f
f8
00
05
ee
f1
f8
30
0a
14
17
00
f7
14
f1
10
0d
0c
3f
2d
e8
f6
27
c6
d4
58
ff
0c
0e
ff
ec
bf
0a
f4
3a
4d
eb
0c
e0
f1
3b
eb
35
16
2d
04
f6
1c
d1
ea
47
08
f4
05
03
00
e6
f8
cb
37
1c
ef
f6
fd
fc
2c
16
e6
18
99
58
09
05
e5
ef
fd
db
1b
00
e7
11
04
af
04
1e
38
db
29
1c
f0
07
df
3a
f7
b1
46
fc
fe
ea
10
ef
e6
04
24
ef
07
24
db
1c
35
fc
06
dc
11
fd
10
19
2d
09
b9
12
00
14
fa
00
d5
0f
16
15
19
d0
f2
26
46
08
dd
f7
1f
25
05
f6
2b
05
fc
3c
05
11
15
ee
0e
db
f4
ea
dc
ea
f6
e6
f2
e4
f7
0e
f8
00
08
04
e4
f0
1d
e7
38
bb
0a
1c
ed
1b
d3
e8
f2
e7
01
e7
ee
f0
f2
ed
fc
ed
01
f6
0b
06
23
f2
09
20
ae
15
0e
de
fc
ef
07
ff
04
fa
00
e1
ea
fb
ee
0d
e2
08
f8
f8
0b
33
cf
28
14
cb
01
05
f4
ed
11
0b
ff
fc
ff
ef
e7
d8
f4
fc
fb
1a
03
e1
f1
0b
23
0a
39
32
bc
f9
07
f5
e2
41
0e
17
00
07
f2
13
db
ff
f9
01
16
0e
fb
fd
04
0e
0b
51
46
e7
eb
17
03
ef
38
10
17
0e
01
08
2a
e0
08
f0
0f
19
fa
f8
0e
01
0d
2a
3f
30
ec
08
12
f0
fe
5d
f9
15
03
13
06
2a
e8
ff
1f
02
13
fc
01
f4
06
f8
2e
37
23
e4
00
07
e4
03
6d
06
12
01
0b
ff
1f
d6
00
2d
0f
0f
f8
01
fd
15
fb
15
27
04
00
ee
ec
ed
c6
4e
fc
1c
fd
18
00
14
ce
05
52
fb
0a
11
f3
ff
1b
fc
1e
12
01
14
04
f8
ea
ce
32
0d
0c
e7
06
14
1a
a6
ee
0b
24
10
f3
05
09
fd
ed
16
20
02
1b
00
01
f1
c6
29
06
14
fa
f3
00
2a
b1
2d
e9
25
1b
06
e8
d1
18
df
ec
29
14
17
05
f0
fa
fd
01
1d
1f
17
ac
21
28
b6
fa
1e
46
3a
f1
fb
00
24
c3
db
41
03
2e
f7
20
00
f0
e3
15
fc
14
fa
03
f8
f0
39
05
2d
15
d6
2f
09
14
fe
fc
68
38
9c
01
11
e0
19
c6
f2
f2
16
fd
0e
ed
de
2a
ee
07
18
0b
03
e7
f0
de
0d
23
03
fc
0a
24
e7
11
c6
f5
f3
08
02
ed
ef
e5
f8
f0
1d
e8
ea
fd
fa
05
21
00
3a
04
a8
45
32
c8
d9
f4
02
ef
06
f5
f6
db
d8
0d
e8
03
dd
ed
09
fd
03
2e
f2
2e
38
ba
12
1f
df
e6
28
16
f6
f9
00
ea
d9
ca
0a
f3
15
0d
00
07
f3
00
1e
15
28
3a
e7
fd
24
0a
05
3b
16
07
03
0e
ea
f1
e5
13
fd
1a
fc
0b
12
0c
fe
13
10
4c
39
e1
f4
1e
ed
00
35
1e
17
00
20
e6
f3
f2
0b
11
29
0c
21
16
18
0d
0b
28
37
37
e2
f1
0b
fe
ec
37
02
18
00
28
f6
0a
f9
0c
25
0d
fb
08
0d
24
1b
02
30
3d
12
08
02
fa
00
ed
25
fc
11
fc
0c
04
17
00
04
47
15
f4
f2
04
24
14
f5
32
1c
f7
11
ef
ea
09
dd
09
e5
04
f3
13
01
10
fb
fc
3f
0b
01
f8
0b
0b
06
f9
3c
20
ca
38
fb
e1
0a
cc
1b
fe
f3
fb
f8
fd
01
df
ec
59
ff
0a
f4
01
0b
f9
b9
4a
0d
df
45
00
e2
ff
dd
06
02
fd
02
f7
fe
42
c0
ff
5a
1a
f7
fb
08
0d
07
b5
1f
12
ce
3b
0e
e5
fd
04
fc
01
ea
1e
ee
1c
0a
37
27
e7
e2
12
d5
47
e8
4e
f5
14
3d
c9
23
f8
12
07
fd
fd
ed
08
03
00
0c
f8
04
11
f6
18
18
ce
08
01
11
20
f6
52
27
e3
13
12
e1
19
c5
e6
f9
10
f8
0b
eb
f6
09
05
fb
03
03
0e
00
f6
00
e6
68
16
d7
17
39
e8
09
d1
ea
f4
0e
12
fa
dd
08
ff
0a
17
f6
09
04
07
1a
1e
fa
2d
16
bd
3b
37
a6
e2
09
05
0a
0a
01
f9
d9
ef
06
f2
2b
df
f8
12
03
0d
25
e8
10
1a
e6
14
22
ec
03
0c
f7
fc
0a
11
03
c9
f4
16
f8
34
ee
02
16
09
14
29
01
1f
20
df
02
23
e2
01
18
ec
01
00
23
f3
cb
fa
16
00
3e
e3
fb
0a
1a
0d
16
19
39
1a
e8
0e
1b
f6
0a
12
04
1c
fb
28
ed
e2
00
22
16
2e
08
03
03
24
f9
1d
1b
3a
1c
f9
0a
0b
f2
f2
19
00
0e
f5
06
e1
ea
f1
04
0e
23
f5
e9
03
28
f4
06
28
1d
fe
05
0f
fd
13
00
12
ea
00
03
0c
f1
ec
f2
fc
14
12
02
ea
11
2e
fc
e0
1d
1f
e1
05
0b
de
24
f5
f3
00
0f
12
02
0a
f2
05
e5
27
29
00
e7
10
1a
06
01
39
1e
cd
3b
1a
e4
24
02
00
eb
02
13
0e
12
08
04
e6
44
15
ff
e9
1f
f2
10
ee
27
ff
d5
27
13
e6
1b
06
08
03
14
13
00
06
0a
1b
d2
69
04
0c
09
0b
09
fb
e0
0a
0d
9f
39
07
e7
f4
f8
e9
02
1e
03
df
35
2b
23
3f
bd
d1
04
df
7f
f4
28
d3
01
74
b8
21
fd
1a
00
f4
07
f5
17
f4
21
00
e1
10
f5
ff
00
e2
c1
10
0b
09
e2
dc
11
12
19
02
15
d9
0b
ca
d3
f6
0a
04
0f
e9
01
1e
f4
1b
e7
00
0e
0b
ef
09
dd
0d
0f
e4
f8
34
eb
06
b7
d3
03
0f
1a
19
d6
00
fe
08
34
c9
08
1a
0c
1b
48
db
2f
ea
db
13
1c
e2
e9
e8
ef
fd
fd
15
0b
e0
14
f7
15
41
ba
0a
20
13
36
56
f2
07
ef
ff
ff
12
d8
11
da
ee
f5
f7
0e
10
b3
06
08
0c
3c
c4
fd
fe
03
29
2d
f0
1e
0c
fb
06
02
f1
fe
d0
03
01
05
fa
ff
c2
05
1e
1e
52
c6
f8
07
fd
1c
2b
03
2b
ff
e8
fb
0a
e6
e5
df
f7
27
fe
15
e8
d5
00
17
20
46
02
10
06
1f
08
f8
0e
12
ec
f3
de
eb
e8
f3
eb
f2
16
fa
0a
f2
d0
dc
00
fe
0a
e3
dd
0e
12
fa
fb
2e
0d
c1
fe
1a
f2
0a
12
f1
ee
08
08
09
fc
05
e7
c7
0a
01
f2
f1
1b
1b
f2
e4
1e
25
bf
1b
18
d4
10
39
06
fc
06
11
1f
00
00
f0
cb
0f
fe
13
ef
02
1d
03
0e
28
00
e7
2c
23
ef
2c
28
f9
f5
08
fd
22
05
f0
00
c4
29
11
09
fc
ff
2e
01
24
03
25
cc
17
14
ed
1a
09
ff
00
19
01
fe
05
de
2d
b0
39
2e
00
23
15
21
0c
00
e8
28
d4
38
22
f5
22
1e
e8
21
1c
2a
c1
3e
1e
14
ed
d6
f1
1f
fc
61
d1
05
1e
1b
37
d3
f8
28
24
11
e0
fd
e6
06
01
21
02
e7
18
f8
25
ff
fe
e1
1f
10
09
22
ea
34
0d
eb
14
1b
ec
0e
cd
f9
f7
eb
0b
0a
db
00
e7
0e
18
b3
ff
fe
26
1e
31
ff
3e
07
c8
2a
17
eb
25
92
05
fc
f2
01
0b
e3
1d
f1
11
11
db
0d
df
0d
25
21
f3
33
de
19
2c
e3
d6
0f
d3
02
fc
ea
15
10
cf
20
f0
12
35
b7
0b
07
08
25
48
e4
2d
ce
fd
06
e4
df
db
bd
00
da
05
00
00
c2
21
02
0b
20
ce
02
f3
fb
10
26
eb
33
08
fa
f8
ed
e5
f2
b9
26
0f
03
f5
07
0b
49
07
3b
2e
fe
02
02
ef
18
03
05
3b
02
19
02
ee
d9
ed
af
1c
31
13
fb
06
01
02
fe
1f
25
09
1d
ff
06
22
14
29
29
e5
25
dc
ec
e8
f7
f3
1c
10
ff
fb
17
00
f0
fd
e8
0c
f2
ff
f8
08
08
26
2d
23
f8
08
2e
0c
0d
0d
02
e8
fe
13
0b
0d
fb
fc
bc
f3
09
fb
00
0c
f5
16
fc
07
2c
f7
23
00
e8
05
20
11
fb
f7
05
0a
f4
e8
ff
df
f1
fb
00
00
f3
03
04
14
09
10
fe
28
16
d5
13
1f
fb
e8
03
fb
1e
0f
b2
18
cc
fd
22
f8
fc
dc
20
0e
28
f4
21
d4
31
0b
f4
18
07
fb
fc
01
f4
12
07
ae
30
c3
06
30
07
17
00
17
10
2d
e3
0c
f2
1b
21
da
02
fa
14
0c
d6
0c
02
02
05
d1
2e
1e
13
1d
e5
17
00
fd
30
cf
38
e8
df
20
11
05
f8
e0
06
00
0f
f0
f4
f3
fb
15
ef
09
e4
0b
20
f7
e7
d1
f1
3c
07
df
10
1a
ed
1d
d7
04
fc
fd
f9
00
0b
fe
f2
e9
fd
ff
f9
fe
1c
f0
bf
15
28
f5
0e
17
d9
00
2a
be
01
fe
fb
0f
fd
f7
11
f0
09
10
e5
11
e7
13
18
e8
0c
22
d1
22
f1
d0
f6
32
d3
0b
eb
f3
fc
13
e0
2d
fc
07
00
de
00
e0
11
2a
0b
06
32
c7
fc
08
b0
e8
00
c8
12
e3
f7
04
09
e6
30
fc
ff
fe
17
f0
e4
f9
1b
ee
05
54
f6
ef
1e
c9
ea
05
d3
2f
00
0c
01
21
18
3c
01
0d
1c
1c
0d
06
05
43
df
02
49
08
1e
f3
dd
db
1d
fb
2c
10
fb
e5
12
03
0f
fa
da
17
46
0a
02
ef
20
0c
14
26
f9
15
09
07
f9
13
22
0a
05
f1
fd
0c
ed
0d
08
f0
09
03
09
e4
f1
1b
1d
18
3a
f9
14
15
0b
ef
1c
fa
ef
f1
10
00
fc
f0
1c
e7
f5
00
f4
ef
08
f2
fe
0e
fe
32
fd
1f
f5
ed
f5
1b
f9
f4
f7
ff
06
f2
ec
18
f1
ea
02
e2
e8
e6
fb
fa
14
ee
18
fc
1d
ef
d6
ea
18
f1
fc
01
f9
00
e8
e0
2e
05
e9
0d
f6
00
06
03
ea
1d
df
1b
da
0f
08
dd
f6
fe
f8
ff
06
fd
ee
fd
a3
3f
18
06
15
e3
19
fe
00
ff
33
b4
0f
ea
fc
01
e2
f8
05
ed
66
fb
0a
fb
d7
0c
18
df
ba
26
2c
d1
d6
d9
2a
5e
b7
ff
b2
fa
28
10
e0
07
dd
25
02
28
e4
f8
37
11
20
d9
fb
23
f9
23
f2
e5
2a
c7
2c
b7
07
12
1d
e9
0a
c9
06
f7
08
fc
f4
fe
14
06
f6
e4
f5
04
ea
02
f0
00
22
17
cd
13
1a
e8
f8
1a
d8
f9
fc
fb
05
02
fd
06
11
f3
00
f0
fb
f7
16
02
f3
25
13
e9
0c
16
b7
ec
0f
11
0a
06
07
02
10
06
0f
f7
0f
05
fc
e2
ee
0a
11
ed
22
33
c7
e2
32
c0
f3
f6
16
11
fb
10
05
20
0c
27
f9
12
37
27
f4
08
1a
2e
d4
1d
43
f2
df
23
d4
f6
0d
ff
16
fb
1b
03
15
21
0b
01
07
1d
13
fb
1e
f8
44
e8
23
40
f5
fd
2a
fa
ed
33
12
20
f8
03
ef
01
00
0e
f6
03
16
23
ff
05
f5
1e
08
19
2d
10
09
12
ef
ee
25
1e
0f
f7
00
f6
f7
fd
29
06
ff
1d
e8
fe
fa
ff
08
1d
fe
23
f2
05
ef
f6
e1
02
fb
eb
fd
00
fc
f5
0b
2b
08
f2
06
e0
00
f8
f6
00
10
ec
05
e9
ff
e7
e0
ec
05
eb
e6
e8
fd
f9
fd
f9
22
f9
ed
03
e7
fb
f6
f0
fa
1f
db
fd
d8
05
f2
d2
e8
f0
db
f7
de
04
ff
fa
0b
31
07
f2
26
e6
0f
00
06
f4
35
d3
f5
db
00
df
c5
fc
04
f0
f7
f9
00
0f
f5
d6
13
f3
eb
4f
d9
16
fc
05
fb
2a
ae
e0
d2
1e
f4
fb
ef
f6
f6
1b
c0
22
e4
ef
17
3c
cf
d3
f7
46
e3
ff
eb
f6
50
aa
19
e3
f5
15
05
f5
09
e9
0d
f4
01
03
f2
13
f5
25
fd
f8
ed
00
10
e0
18
ef
f7
39
ed
0d
00
1c
e1
10
d8
f5
fd
00
fa
f4
f9
fa
11
f7
01
06
eb
02
e9
f7
0a
eb
f1
db
f8
f9
04
df
16
f0
15
13
03
fc
05
1c
0e
0c
fc
00
fd
01
f8
0c
0e
fa
19
04
d4
d9
02
d8
f4
d7
e8
1a
fd
09
f9
1a
12
10
12
f3
1a
0b
02
fe
fa
31
fc
0e
04
e1
df
11
d7
eb
00
1f
03
00
ed
fe
0d
18
07
fe
08
27
19
13
0a
00
28
f5
2e
1d
f0
f1
17
e4
19
1e
13
0d
09
f4
04
f2
09
05
f3
0b
36
ff
f4
15
ef
10
fd
34
11
eb
e9
10
f0
20
34
26
1d
00
f8
05
e9
0b
06
10
04
2a
0d
ec
16
05
10
11
1a
fc
ed
f0
ea
e9
0e
22
00
0d
fa
ee
fc
f1
0d
fa
27
08
26
04
fe
ff
f0
11
36
04
fd
ea
f5
da
f2
1a
fc
03
0c
f9
ed
fd
f7
0b
fa
2e
11
22
f7
05
03
13
f7
34
f3
ef
df
03
ea
08
07
f4
fc
04
f7
f7
f1
fd
08
f4
3e
f6
09
e5
04
08
0e
0b
31
de
d7
d7
ea
e8
00
fb
fd
fb
07
06
02
f6
f6
34
ef
16
f8
22
f4
11
fe
f2
02
3f
b5
ea
de
09
e5
f5
fa
03
ef
06
08
0a
f4
fb
29
d3
2a
a4
29
ee
03
0d
06
1f
3c
c8
07
ec
fb
ff
11
ef
05
fe
16
e1
eb
fc
01
cd
42
e5
2d
2c
00
35
1b
cb
db
2e
c8
0c
f8
f7
02
01
eb
0a
dc
19
14
ea
00
c9
3c
fb
ff
de
c9
0d
f2
12
ef
19
01
de
f8
01
05
06
21
dd
1a
d5
0a
08
fb
07
ec
f5
04
0e
14
f5
fd
02
00
e1
fc
02
0d
f4
06
f5
ff
1e
d9
0c
e2
fe
02
13
0c
ff
13
13
08
10
10
16
0d
f6
fe
1a
fa
1a
11
fe
f1
31
ea
e4
d5
d5
02
10
fc
0e
12
1a
fa
01
02
0b
12
fe
ef
00
11
01
2f
01
f4
fa
15
f2
e4
df
0d
0e
0a
10
01
fe
19
05
02
04
18
09
f1
f9
fc
16
0d
2c
09
fa
f7
02
ef
04
0b
e5
06
06
fe
02
ff
16
fa
04
13
34
0e
f1
fd
fe
0a
00
33
13
e5
07
eb
e4
04
fc
df
0b
10
0a
0b
fb
0b
e0
fe
21
29
17
eb
10
f5
04
1e
2f
02
f9
0b
db
f9
27
01
f5
08
09
08
fd
f6
06
e5
00
1a
1b
0c
08
18
01
06
37
fd
ff
f8
f6
e2
12
22
f3
03
14
0b
00
f2
ff
09
b9
17
02
15
09
0e
1a
e1
06
2a
f6
ea
ea
fc
de
12
19
ef
09
17
0b
04
ef
f9
14
c3
30
08
2c
05
04
17
f4
03
37
e8
de
f5
f9
e8
1c
fe
01
f6
0b
fd
02
e9
03
27
ca
1d
18
fe
03
16
f7
02
12
22
d5
05
f4
0e
f8
09
fc
fd
f9
00
00
16
f8
04
21
e7
1d
07
d7
04
1a
15
f2
12
08
dc
ec
05
0c
f9
09
ed
02
fc
1a
00
01
0e
b6
cd
21
dd
41
20
02
2a
01
eb
f3
24
c6
ed
1c
f3
fd
0a
e9
28
c9
ff
22
fd
04
ec
fa
23
18
09
03
18
11
2a
f7
d0
19
17
1e
e8
ac
01
22
de
0c
cb
07
fb
0d
e9
ec
03
fa
08
d0
03
19
00
03
ea
f7
03
0e
f0
fa
02
06
28
db
20
c4
0d
0d
01
e5
09
0e
09
f2
08
0b
15
f1
f8
05
fd
07
1e
fb
0e
f8
01
fd
d1
0c
e3
17
14
fe
f1
fb
0c
14
f6
f8
08
0a
fc
ff
14
ff
1e
27
06
ec
fd
cb
c7
f3
21
d4
0e
13
03
f1
fb
0c
fc
ee
10
14
03
f9
00
12
14
0c
22
02
02
06
da
e9
fe
14
e6
0c
1f
13
fb
ee
03
f1
e8
17
21
01
f2
0e
16
0e
08
36
01
e6
1d
e3
01
0e
04
ec
08
13
0b
fb
04
fe
e3
ec
26
13
07
08
05
0d
11
21
26
fe
08
07
f1
06
26
05
eb
1a
0c
16
ec
fe
e6
ca
02
45
19
17
03
26
f5
0b
19
11
f1
03
0d
0a
0f
1e
f3
01
10
0d
07
fb
1d
eb
d7
06
36
1e
15
f8
1d
ff
08
1a
0e
f0
ff
18
fe
0f
26
f6
f8
1d
06
04
ef
06
fd
f1
0e
16
03
09
14
19
f8
0e
20
07
f3
06
13
03
0d
07
f0
ef
19
fd
05
ee
0b
09
f9
23
11
11
f8
11
1d
04
0c
15
f7
f9
08
09
16
0d
fb
01
f2
0a
22
11
ed
1c
eb
fd
37
e3
1a
09
20
1f
08
fa
02
fa
0f
20
0d
0d
1a
01
00
e9
03
15
1a
f0
d1
de
30
c9
37
13
0b
17
b7
e8
e0
ff
e4
01
19
e7
09
11
f4
0f
ca
fc
1f
fb
ff
ff
de
10
12
df
35
0b
13
26
f3
19
f2
02
44
ed
09
02
1a
ee
1c
cb
cc
1c
15
16
d8
be
e8
55
3b
d5
db
e8
19
34
e4
e9
f0
12
28
d3
0b
18
f6
12
c5
e8
06
39
fe
dc
ed
e8
39
fb
fe
06
f6
1b
f1
e1
eb
07
0e
e0
ed
f1
03
e2
4c
be
f2
04
21
fb
dd
cb
eb
14
32
c0
e5
ed
10
08
d8
01
03
f4
de
fa
be
e1
fc
2a
eb
03
13
28
08
d8
c1
f9
27
15
02
e4
00
1d
02
09
0c
fe
f5
ec
14
e3
e2
f6
0b
07
03
23
34
d6
e2
b8
f9
1a
1f
fb
f7
fd
08
04
f7
1b
f4
ec
f1
09
f0
ee
19
12
ff
fa
1a
37
db
e8
cd
f1
3b
3c
02
fb
db
1d
0c
0b
1b
02
f3
ef
fd
f9
fd
0d
fe
ee
11
03
49
f1
f0
bb
f6
41
1e
18
f4
ed
1e
0a
07
0f
0a
f5
e8
02
f6
03
fb
ef
05
17
09
5c
f3
df
8b
f4
58
13
08
f9
0f
0c
f9
01
1b
1f
f9
e3
13
00
14
00
f2
f7
f8
0f
5c
f3
f5
98
26
43
50
1b
e1
26
33
17
0d
0b
02
16
f5
0e
fd
09
07
ec
0a
f3
1e
35
ef
16
a4
03
1b
31
e8
02
05
24
f9
08
ff
03
ff
f1
1a
06
1c
fd
05
e9
db
25
0c
f3
fe
fc
2d
fd
f8
3a
b7
54
0d
0c
2f
d3
03
00
fb
4d
ff
0f
f4
fa
f2
0d
24
f8
fb
eb
e8
0c
fa
22
0b
23
f2
d0
ef
da
06
03
23
de
fb
04
1b
e8
00
d3
