81
3e
6d
fa
a1
9c
e1
01
f5
80
4d
0d
ad
46
80
78
25
80
f2
0e
80
80
11
43
00
2c
80
39
23
25
7a
2d
f2
d8
f9
81
8f
51
f9
37
eb
e3
d1
94
74
e0
6a
b8
21
fa
