02
03
03
fe
fe
00
03
01
05
02
02
02
01
03
fc
03
0b
0f
10
11
12
15
15
0c
05
01
03
05
0a
15
10
00
e6
dd
ee
f8
fc
11
fb
02
07
10
1b
09
03
e7
c6
d4
02
08
01
09
fd
08
0d
08
10
eb
f3
e6
c0
ed
ed
f4
0c
03
0a
f7
04
ed
f0
1c
34
fc
e4
cd
d1
0a
fd
03
db
ee
c9
f7
48
5c
19
fc
d3
be
03
04
fc
d3
cf
c7
10
5f
42
0f
e6
de
cc
fc
07
f9
db
cb
ce
03
50
26
d7
ed
e8
e8
04
ff
00
eb
dc
b7
df
13
f3
fa
fb
f4
05
05
03
0a
f7
e8
b5
b5
f0
ef
0e
0a
08
06
03
fe
06
06
04
e6
c5
db
fb
0b
14
0b
02
01
03
01
07
09
10
19
19
16
0b
05
07
06
00
f2
f6
ee
f0
f5
f2
f4
f4
ee
f0
f2
ed
f4
f3
ef
f2
f5
fe
f9
01
15
12
01
ff
fa
ef
f1
f1
f4
09
1a
f3
d3
e7
df
ca
d7
f0
f2
f3
fa
09
22
32
18
28
28
13
0b
07
ff
ec
f7
f5
08
1a
29
20
ec
ec
29
2e
26
0d
f5
ef
f1
05
1b
29
29
98
e4
16
25
13
fd
f7
f3
f4
fe
12
51
0e
a8
a3
0e
20
03
fa
f1
ed
f8
0c
1b
40
f5
97
c1
41
1f
0d
f8
f3
ee
fe
22
26
14
fd
a2
1b
4b
24
0c
f9
f5
ed
01
1a
11
0c
fd
e5
24
19
15
08
f6
f4
f5
f7
f4
f4
06
1d
16
ff
00
08
fd
f2
f5
f3
f3
ec
f1
03
1e
00
df
eb
ff
f8
f3
ee
ee
ef
f7
02
05
0a
0c
05
f6
f8
ee
f3
f1
03
06
01
00
04
04
00
08
0b
03
04
03
04
05
05
03
f5
ea
e9
f1
02
08
15
0b
00
ff
ff
ff
f4
db
ca
d7
cd
da
e7
0d
15
07
fd
05
ff
e6
e2
df
e5
f5
0a
12
10
0d
15
ff
07
06
fa
0c
f4
02
07
ef
f0
00
11
0f
05
03
0c
2f
46
3b
4f
57
1f
fe
fb
0d
08
0a
00
14
37
33
1c
2a
15
1d
0b
03
0d
0b
0a
06
f8
f8
ec
e1
d2
c3
00
03
0f
14
0b
0c
00
e8
d0
d1
d1
b1
d1
fd
f2
fc
f6
e7
fd
0a
e6
c6
c3
c2
c4
dd
f2
f7
f5
de
df
01
04
f8
e6
de
db
f5
0b
01
e5
d6
d4
e4
00
03
01
08
16
0f
17
1f
19
06
f8
f5
fe
06
07
09
05
0e
1a
0f
12
10
0a
07
05
05
02
01
08
0b
08
07
03
09
07
0b
09
08
02
01
04
05
00
fd
f7
ed
ec
f0
01
06
0b
00
02
0a
f8
ea
d4
d7
df
ec
fb
ff
09
1b
0b
fc
09
ea
dd
df
dc
ef
e2
e3
ed
e8
02
12
05
03
ef
fc
16
2f
2a
d4
b5
c8
c8
ea
13
02
06
04
1f
36
2d
0a
d4
d4
dd
e7
09
0d
02
04
07
25
25
06
dd
d1
f1
f5
13
2f
17
00
05
ff
13
22
15
0d
03
0b
03
fc
07
12
01
02
f5
0b
1d
38
3f
31
06
db
d8
e8
01
06
00
dd
e7
05
24
29
1d
dd
ba
d9
e3
04
03
fe
e2
da
dd
f1
0e
fd
e1
e1
e6
fd
09
04
09
f2
df
e4
f0
fb
07
09
0a
03
0e
07
06
02
06
fd
f3
f0
e3
f2
fc
fe
0a
05
08
01
fd
fa
f7
fa
fb
fa
fb
fc
f9
f8
f8
fa
fe
f5
f6
fd
00
11
23
2a
21
17
09
01
01
fc
f4
fd
f4
02
15
1b
21
0e
fe
eb
d4
e9
fe
f6
f8
01
fa
12
1d
3a
36
01
f0
d8
da
f1
f8
ff
0c
0e
07
06
41
25
e5
f2
f8
f9
fd
f8
0b
04
e2
b1
c3
21
e5
d0
05
10
0f
02
fb
fd
dd
d3
a6
bc
11
db
bc
e9
f7
fd
fe
f7
f8
da
c8
d7
dc
e6
9e
b5
d0
f8
fe
f6
f8
0c
06
f8
03
f5
ba
a6
f1
05
05
03
ff
f6
0d
24
39
3c
1d
f6
06
1e
17
14
07
ff
fc
ff
23
39
2b
21
10
09
00
ff
07
02
f6
fa
fc
0c
15
13
0c
0d
f8
e8
e2
f4
fb
f8
fb
f5
00
05
11
24
1e
24
1b
0e
01
fe
f9
fe
06
fd
03
fd
ff
04
f7
ff
00
ff
04
01
fd
fe
04
0c
07
0e
04
fb
f6
fb
f3
00
0e
01
08
0e
12
04
11
10
08
ed
f2
e6
f3
18
02
12
14
00
ea
fc
14
09
f5
df
cc
c5
09
fd
0b
04
e9
d4
ea
0f
2f
1b
04
da
b2
e1
06
04
f6
e6
d8
c4
e7
18
29
3d
41
0d
f5
ff
08
01
ee
c2
d0
f2
35
30
20
35
2a
07
03
04
13
1a
01
fc
1d
27
0c
02
0d
10
00
fe
04
f1
21
2e
2c
22
14
f0
f5
00
04
02
01
fd
d5
d8
f8
fe
09
fc
f5
f6
fc
f9
ff
03
07
f7
da
de
ed
ff
09
ef
f9
f5
fb
fc
03
04
0d
fe
f1
e7
f4
f6
fc
00
00
00
fd
01
04
ff
05
ff
f4
f8
08
08
07
03
00
ff
00
fd
f9
ff
00
01
04
0b
01
0b
06
06
00
01
fc
fe
f4
e4
dd
dc
d2
c6
c4
e5
f8
fd
00
03
04
f7
f8
02
04
ee
dd
d4
ec
ee
01
ff
07
0d
0b
10
23
1a
19
2c
2e
22
14
04
fd
06
08
fd
0a
0b
13
48
47
3e
32
24
04
fe
06
f7
ef
e1
d8
13
33
2d
16
f5
fd
04
03
0b
e5
e4
c4
e4
f5
f6
12
03
c7
c4
fa
03
08
e9
de
be
d6
c5
d8
0e
f3
cc
d4
f5
02
16
04
d2
b6
ba
d4
fc
f7
e3
f6
fc
0a
03
1a
20
05
ae
b2
dd
cb
bc
e2
ff
11
00
01
08
2a
27
09
c1
b5
d1
ec
0a
13
03
fe
03
01
09
1b
29
2a
25
24
1f
0f
0a
00
02
03
fc
03
02
04
08
0c
0c
06
02
fd
05
fd
fc
03
fc
f9
fe
fa
f9
fa
f9
fe
fa
fa
fc
01
f9
fa
05
04
09
02
fc
f6
ee
ef
f4
f8
fa
ff
03
07
1d
28
37
2f
2b
1e
1a
07
fc
fd
f4
ef
e7
ea
f5
10
fd
f6
fd
03
0c
fa
f4
e5
ea
f1
ec
de
bb
aa
d1
d8
eb
01
fb
f3
e8
fb
f4
07
11
0e
b2
be
dc
f0
0a
fb
f9
f5
06
08
24
65
54
e3
d4
e4
05
08
fe
f9
fb
0b
11
2c
52
39
e7
b2
d4
ed
fa
fc
01
ff
19
23
23
17
f8
02
e5
00
0a
00
fe
01
02
19
2e
22
02
f8
1c
2a
27
1c
08
ff
fd
05
17
18
0d
00
00
22
23
27
18
05
fc
02
f7
ed
f2
f8
f7
ee
e7
0a
1d
15
ff
00
fc
fa
ef
d7
c8
d5
c8
c7
ee
01
05
03
fd
03
0b
06
09
07
06
09
03
09
03
0a
06
0a
0a
07
0c
0c
09
07
0f
0f
0e
0e
0d
0c
03
04
06
0c
09
01
ec
e6
e8
fd
fe
ff
0c
0e
08
07
00
f9
ed
e5
f5
f2
f2
02
f2
f6
08
04
05
f2
de
d8
e6
17
26
05
e1
db
de
07
09
ff
e4
d2
dc
d9
e8
06
f8
da
d2
e5
04
06
04
09
0c
02
bf
c8
c5
01
ff
f5
fc
04
08
06
1b
1f
11
b3
c5
e4
1b
2f
1e
10
05
09
0b
05
e8
c9
b9
f1
03
16
1b
11
09
02
08
12
f9
d0
d6
e4
0b
0c
fd
fa
04
fe
03
0c
0d
fb
ec
f0
e9
ef
ec
f8
fa
00
08
06
03
0a
12
0c
07
d1
ba
d3
da
f1
fe
05
07
06
08
0f
17
18
13
04
fa
f9
03
0d
09
03
fa
00
02
ff
ff
04
fb
fc
fb
ff
fe
fe
ff
03
00
ff
00
05
fc
00
fc
fd
fa
f9
f6
01
03
fe
06
09
05
07
12
17
26
23
1d
05
fd
04
06
18
1a
0e
df
81
a9
ed
02
22
16
05
00
0b
08
fc
e4
d5
f5
f9
f6
0d
1d
16
03
ff
f7
de
d4
c8
f9
00
f1
cd
cd
ed
01
ff
03
ec
da
d7
f2
02
d0
c2
ac
cb
f5
fb
f8
03
f5
fd
f2
fc
fe
f8
d9
bc
0a
17
0f
fb
00
04
11
08
f7
0b
f6
cf
f9
12
1a
0f
04
ff
0c
1a
20
30
36
14
09
15
01
12
0c
04
fd
ff
11
1f
2e
29
21
1f
1a
07
06
04
fe
fe
03
05
06
fe
03
0c
15
07
f3
eb
fb
04
00
00
fd
f3
e2
e0
e3
e5
d6
db
ed
00
03
